// if having troubles with min/max, uncomment the following
// #undef min    
// #undef max
#ifdef __has_attribute
#define HAVE_ATTRIBUTE(x) __has_attribute(x)
#else
#define HAVE_ATTRIBUTE(x) 0
#endif
#if HAVE_ATTRIBUTE(aligned) || (defined(__GNUC__) && !defined(__clang__))
#define DATA_ALIGN_ATTRIBUTE __attribute__((aligned(4)))
#else
#define DATA_ALIGN_ATTRIBUTE
#endif
const unsigned char acel_model[] DATA_ALIGN_ATTRIBUTE = {
  0x1c, 0x00, 0x00, 0x00, 0x54, 0x46, 0x4c, 0x33, 0x14, 0x00, 0x20, 0x00, 
  0x04, 0x00, 0x08, 0x00, 0x0c, 0x00, 0x10, 0x00, 0x14, 0x00, 0x00, 0x00, 
  0x18, 0x00, 0x1c, 0x00, 0x14, 0x00, 0x00, 0x00, 0x03, 0x00, 0x00, 0x00, 
  0x18, 0x00, 0x00, 0x00, 0x20, 0x00, 0x00, 0x00, 0x38, 0x01, 0x00, 0x00, 
  0x20, 0x00, 0x00, 0x00, 0xe0, 0x00, 0x00, 0x00, 0x58, 0x00, 0x00, 0x00, 
  0x02, 0x00, 0x00, 0x00, 0xe4, 0x04, 0x00, 0x00, 0x2c, 0x04, 0x00, 0x00, 
  0x01, 0x00, 0x00, 0x00, 0x3c, 0x01, 0x00, 0x00, 0x0f, 0x00, 0x00, 0x00, 
  0x10, 0x0a, 0x00, 0x00, 0x0c, 0x0a, 0x00, 0x00, 0x40, 0x09, 0x00, 0x00, 
  0xb0, 0x08, 0x00, 0x00, 0x58, 0x08, 0x00, 0x00, 0xa0, 0x07, 0x00, 0x00, 
  0x0c, 0x06, 0x00, 0x00, 0x38, 0x05, 0x00, 0x00, 0xf0, 0x09, 0x00, 0x00, 
  0xec, 0x09, 0x00, 0x00, 0xe8, 0x09, 0x00, 0x00, 0xe4, 0x09, 0x00, 0x00, 
  0xe0, 0x09, 0x00, 0x00, 0xdc, 0x09, 0x00, 0x00, 0xbc, 0x00, 0x00, 0x00, 
  0x01, 0x00, 0x00, 0x00, 0x10, 0x00, 0x00, 0x00, 0x00, 0x00, 0x0a, 0x00, 
  0x10, 0x00, 0x0c, 0x00, 0x08, 0x00, 0x04, 0x00, 0x0a, 0x00, 0x00, 0x00, 
  0x0c, 0x00, 0x00, 0x00, 0x1c, 0x00, 0x00, 0x00, 0x20, 0x00, 0x00, 0x00, 
  0x0f, 0x00, 0x00, 0x00, 0x73, 0x65, 0x72, 0x76, 0x69, 0x6e, 0x67, 0x5f, 
  0x64, 0x65, 0x66, 0x61, 0x75, 0x6c, 0x74, 0x00, 0x01, 0x00, 0x00, 0x00, 
  0x14, 0x00, 0x00, 0x00, 0x01, 0x00, 0x00, 0x00, 0x24, 0x00, 0x00, 0x00, 
  0x08, 0x00, 0x0c, 0x00, 0x08, 0x00, 0x04, 0x00, 0x08, 0x00, 0x00, 0x00, 
  0x0c, 0x00, 0x00, 0x00, 0x04, 0x00, 0x00, 0x00, 0x07, 0x00, 0x00, 0x00, 
  0x64, 0x65, 0x6e, 0x73, 0x65, 0x5f, 0x35, 0x00, 0x62, 0xf7, 0xff, 0xff, 
  0x04, 0x00, 0x00, 0x00, 0x0d, 0x00, 0x00, 0x00, 0x64, 0x65, 0x6e, 0x73, 
  0x65, 0x5f, 0x33, 0x5f, 0x69, 0x6e, 0x70, 0x75, 0x74, 0x00, 0x00, 0x00, 
  0x01, 0x00, 0x00, 0x00, 0x0c, 0x00, 0x00, 0x00, 0x08, 0x00, 0x0c, 0x00, 
  0x04, 0x00, 0x08, 0x00, 0x08, 0x00, 0x00, 0x00, 0x08, 0x00, 0x00, 0x00, 
  0x0e, 0x00, 0x00, 0x00, 0x13, 0x00, 0x00, 0x00, 0x6d, 0x69, 0x6e, 0x5f, 
  0x72, 0x75, 0x6e, 0x74, 0x69, 0x6d, 0x65, 0x5f, 0x76, 0x65, 0x72, 0x73, 
  0x69, 0x6f, 0x6e, 0x00, 0xb2, 0xf7, 0xff, 0xff, 0x04, 0x00, 0x00, 0x00, 
  0x10, 0x00, 0x00, 0x00, 0x31, 0x2e, 0x31, 0x34, 0x2e, 0x30, 0x00, 0x00, 
  0x00, 0x00, 0x00, 0x00, 0x00, 0x00, 0x00, 0x00, 0x0f, 0x00, 0x00, 0x00, 
  0x4d, 0x4c, 0x49, 0x52, 0x20, 0x43, 0x6f, 0x6e, 0x76, 0x65, 0x72, 0x74, 
  0x65, 0x64, 0x2e, 0x00, 0x00, 0x00, 0x0e, 0x00, 0x18, 0x00, 0x04, 0x00, 
  0x08, 0x00, 0x0c, 0x00, 0x10, 0x00, 0x14, 0x00, 0x0e, 0x00, 0x00, 0x00, 
  0x14, 0x00, 0x00, 0x00, 0x48, 0x00, 0x00, 0x00, 0x4c, 0x00, 0x00, 0x00, 
  0x50, 0x00, 0x00, 0x00, 0x68, 0x00, 0x00, 0x00, 0x0d, 0x00, 0x00, 0x00, 
  0x64, 0x08, 0x00, 0x00, 0x18, 0x08, 0x00, 0x00, 0xb0, 0x07, 0x00, 0x00, 
  0x2c, 0x07, 0x00, 0x00, 0xc4, 0x06, 0x00, 0x00, 0x0c, 0x06, 0x00, 0x00, 
  0x78, 0x04, 0x00, 0x00, 0x74, 0x03, 0x00, 0x00, 0xbc, 0x02, 0x00, 0x00, 
  0x08, 0x02, 0x00, 0x00, 0x7c, 0x01, 0x00, 0x00, 0xe4, 0x00, 0x00, 0x00, 
  0x5c, 0x00, 0x00, 0x00, 0x01, 0x00, 0x00, 0x00, 0x00, 0x00, 0x00, 0x00, 
  0x01, 0x00, 0x00, 0x00, 0x0c, 0x00, 0x00, 0x00, 0x06, 0x00, 0x00, 0x00, 
  0xfc, 0x02, 0x00, 0x00, 0x60, 0x02, 0x00, 0x00, 0xac, 0x01, 0x00, 0x00, 
  0x30, 0x01, 0x00, 0x00, 0x88, 0x00, 0x00, 0x00, 0x10, 0x00, 0x00, 0x00, 
  0x04, 0x00, 0x00, 0x00, 0x6d, 0x61, 0x69, 0x6e, 0x00, 0x00, 0x00, 0x00, 
  0xca, 0xfd, 0xff, 0xff, 0x01, 0x00, 0x00, 0x00, 0x10, 0x00, 0x00, 0x00, 
  0x04, 0x00, 0x00, 0x00, 0x01, 0x00, 0x00, 0x00, 0x0c, 0x00, 0x00, 0x00, 
  0x01, 0x00, 0x00, 0x00, 0x0b, 0x00, 0x00, 0x00, 0x3c, 0xf8, 0xff, 0xff, 
  0x14, 0x00, 0x00, 0x00, 0x0d, 0x00, 0x00, 0x00, 0x18, 0x00, 0x00, 0x00, 
  0x40, 0x00, 0x00, 0x00, 0x30, 0x00, 0x00, 0x00, 0x02, 0x00, 0x00, 0x00, 
  0x01, 0x00, 0x00, 0x00, 0x02, 0x00, 0x00, 0x00, 0x19, 0x00, 0x00, 0x00, 
  0x53, 0x74, 0x61, 0x74, 0x65, 0x66, 0x75, 0x6c, 0x50, 0x61, 0x72, 0x74, 
  0x69, 0x74, 0x69, 0x6f, 0x6e, 0x65, 0x64, 0x43, 0x61, 0x6c, 0x6c, 0x3a, 
  0x30, 0x00, 0x00, 0x00, 0x02, 0x00, 0x00, 0x00, 0xff, 0xff, 0xff, 0xff, 
  0x02, 0x00, 0x00, 0x00, 0x20, 0xf8, 0xff, 0xff, 0xaa, 0xfd, 0xff, 0xff, 
  0x00, 0x00, 0x00, 0x08, 0x18, 0x00, 0x00, 0x00, 0x0c, 0x00, 0x00, 0x00, 
  0x04, 0x00, 0x00, 0x00, 0x38, 0xf8, 0xff, 0xff, 0x01, 0x00, 0x00, 0x00, 
  0x0b, 0x00, 0x00, 0x00, 0x03, 0x00, 0x00, 0x00, 0x0a, 0x00, 0x00, 0x00, 
  0x06, 0x00, 0x00, 0x00, 0x01, 0x00, 0x00, 0x00, 0xc0, 0xf8, 0xff, 0xff, 
  0x14, 0x00, 0x00, 0x00, 0x0c, 0x00, 0x00, 0x00, 0x18, 0x00, 0x00, 0x00, 
  0x60, 0x00, 0x00, 0x00, 0x50, 0x00, 0x00, 0x00, 0x02, 0x00, 0x00, 0x00, 
  0x01, 0x00, 0x00, 0x00, 0x02, 0x00, 0x00, 0x00, 0x38, 0x00, 0x00, 0x00, 
  0x73, 0x65, 0x71, 0x75, 0x65, 0x6e, 0x74, 0x69, 0x61, 0x6c, 0x5f, 0x31, 
  0x2f, 0x64, 0x65, 0x6e, 0x73, 0x65, 0x5f, 0x35, 0x2f, 0x4d, 0x61, 0x74, 
  0x4d, 0x75, 0x6c, 0x3b, 0x73, 0x65, 0x71, 0x75, 0x65, 0x6e, 0x74, 0x69, 
  0x61, 0x6c, 0x5f, 0x31, 0x2f, 0x64, 0x65, 0x6e, 0x73, 0x65, 0x5f, 0x35, 
  0x2f, 0x42, 0x69, 0x61, 0x73, 0x41, 0x64, 0x64, 0x00, 0x00, 0x00, 0x00, 
  0x02, 0x00, 0x00, 0x00, 0xff, 0xff, 0xff, 0xff, 0x02, 0x00, 0x00, 0x00, 
  0xc4, 0xf8, 0xff, 0xff, 0xe2, 0xfe, 0xff, 0xff, 0x01, 0x00, 0x00, 0x00, 
  0x10, 0x00, 0x00, 0x00, 0x04, 0x00, 0x00, 0x00, 0x01, 0x00, 0x00, 0x00, 
  0x0a, 0x00, 0x00, 0x00, 0x01, 0x00, 0x00, 0x00, 0x09, 0x00, 0x00, 0x00, 
  0x54, 0xf9, 0xff, 0xff, 0x14, 0x00, 0x00, 0x00, 0x0b, 0x00, 0x00, 0x00, 
  0x18, 0x00, 0x00, 0x00, 0x44, 0x00, 0x00, 0x00, 0x34, 0x00, 0x00, 0x00, 
  0x02, 0x00, 0x00, 0x00, 0x01, 0x00, 0x00, 0x00, 0x10, 0x00, 0x00, 0x00, 
  0x1c, 0x00, 0x00, 0x00, 0x73, 0x65, 0x71, 0x75, 0x65, 0x6e, 0x74, 0x69, 
  0x61, 0x6c, 0x5f, 0x31, 0x2f, 0x64, 0x65, 0x6e, 0x73, 0x65, 0x5f, 0x34, 
  0x2f, 0x53, 0x69, 0x67, 0x6d, 0x6f, 0x69, 0x64, 0x00, 0x00, 0x00, 0x00, 
  0x02, 0x00, 0x00, 0x00, 0xff, 0xff, 0xff, 0xff, 0x10, 0x00, 0x00, 0x00, 
  0x3c, 0xf9, 0xff, 0xff, 0xc6, 0xfe, 0xff, 0xff, 0x00, 0x00, 0x00, 0x08, 
  0x18, 0x00, 0x00, 0x00, 0x0c, 0x00, 0x00, 0x00, 0x04, 0x00, 0x00, 0x00, 
  0x54, 0xf9, 0xff, 0xff, 0x01, 0x00, 0x00, 0x00, 0x09, 0x00, 0x00, 0x00, 
  0x03, 0x00, 0x00, 0x00, 0x08, 0x00, 0x00, 0x00, 0x05, 0x00, 0x00, 0x00, 
  0x02, 0x00, 0x00, 0x00, 0xdc, 0xf9, 0xff, 0xff, 0x14, 0x00, 0x00, 0x00, 
  0x0a, 0x00, 0x00, 0x00, 0x18, 0x00, 0x00, 0x00, 0x60, 0x00, 0x00, 0x00, 
  0x50, 0x00, 0x00, 0x00, 0x02, 0x00, 0x00, 0x00, 0x01, 0x00, 0x00, 0x00, 
  0x10, 0x00, 0x00, 0x00, 0x38, 0x00, 0x00, 0x00, 0x73, 0x65, 0x71, 0x75, 
  0x65, 0x6e, 0x74, 0x69, 0x61, 0x6c, 0x5f, 0x31, 0x2f, 0x64, 0x65, 0x6e, 
  0x73, 0x65, 0x5f, 0x34, 0x2f, 0x4d, 0x61, 0x74, 0x4d, 0x75, 0x6c, 0x3b, 
  0x73, 0x65, 0x71, 0x75, 0x65, 0x6e, 0x74, 0x69, 0x61, 0x6c, 0x5f, 0x31, 
  0x2f, 0x64, 0x65, 0x6e, 0x73, 0x65, 0x5f, 0x34, 0x2f, 0x42, 0x69, 0x61, 
  0x73, 0x41, 0x64, 0x64, 0x00, 0x00, 0x00, 0x00, 0x02, 0x00, 0x00, 0x00, 
  0xff, 0xff, 0xff, 0xff, 0x10, 0x00, 0x00, 0x00, 0xb4, 0xfa, 0xff, 0xff, 
  0x00, 0x00, 0x0a, 0x00, 0x10, 0x00, 0x04, 0x00, 0x08, 0x00, 0x0c, 0x00, 
  0x0a, 0x00, 0x00, 0x00, 0x01, 0x00, 0x00, 0x00, 0x10, 0x00, 0x00, 0x00, 
  0x04, 0x00, 0x00, 0x00, 0x01, 0x00, 0x00, 0x00, 0x08, 0x00, 0x00, 0x00, 
  0x01, 0x00, 0x00, 0x00, 0x07, 0x00, 0x00, 0x00, 0x58, 0xff, 0xff, 0xff, 
  0x0e, 0x00, 0x00, 0x00, 0x00, 0x00, 0x00, 0x0e, 0x01, 0x00, 0x00, 0x00, 
  0x8c, 0xfa, 0xff, 0xff, 0x14, 0x00, 0x00, 0x00, 0x09, 0x00, 0x00, 0x00, 
  0x18, 0x00, 0x00, 0x00, 0x44, 0x00, 0x00, 0x00, 0x34, 0x00, 0x00, 0x00, 
  0x02, 0x00, 0x00, 0x00, 0x01, 0x00, 0x00, 0x00, 0x05, 0x00, 0x00, 0x00, 
  0x1c, 0x00, 0x00, 0x00, 0x73, 0x65, 0x71, 0x75, 0x65, 0x6e, 0x74, 0x69, 
  0x61, 0x6c, 0x5f, 0x31, 0x2f, 0x64, 0x65, 0x6e, 0x73, 0x65, 0x5f, 0x33, 
  0x2f, 0x53, 0x69, 0x67, 0x6d, 0x6f, 0x69, 0x64, 0x00, 0x00, 0x00, 0x00, 
  0x02, 0x00, 0x00, 0x00, 0xff, 0xff, 0xff, 0xff, 0x05, 0x00, 0x00, 0x00, 
  0x48, 0xfb, 0xff, 0xff, 0x00, 0x00, 0x0e, 0x00, 0x14, 0x00, 0x00, 0x00, 
  0x08, 0x00, 0x0c, 0x00, 0x07, 0x00, 0x10, 0x00, 0x0e, 0x00, 0x00, 0x00, 
  0x00, 0x00, 0x00, 0x08, 0x18, 0x00, 0x00, 0x00, 0x0c, 0x00, 0x00, 0x00, 
  0x04, 0x00, 0x00, 0x00, 0x9c, 0xfa, 0xff, 0xff, 0x01, 0x00, 0x00, 0x00, 
  0x07, 0x00, 0x00, 0x00, 0x03, 0x00, 0x00, 0x00, 0x00, 0x00, 0x00, 0x00, 
  0x04, 0x00, 0x00, 0x00, 0x03, 0x00, 0x00, 0x00, 0x0c, 0x00, 0x10, 0x00, 
  0x0b, 0x00, 0x00, 0x00, 0x0c, 0x00, 0x04, 0x00, 0x0c, 0x00, 0x00, 0x00, 
  0x09, 0x00, 0x00, 0x00, 0x00, 0x00, 0x00, 0x09, 0x01, 0x00, 0x00, 0x00, 
  0x40, 0xfb, 0xff, 0xff, 0x14, 0x00, 0x00, 0x00, 0x08, 0x00, 0x00, 0x00, 
  0x18, 0x00, 0x00, 0x00, 0x60, 0x00, 0x00, 0x00, 0x50, 0x00, 0x00, 0x00, 
  0x02, 0x00, 0x00, 0x00, 0x01, 0x00, 0x00, 0x00, 0x05, 0x00, 0x00, 0x00, 
  0x38, 0x00, 0x00, 0x00, 0x73, 0x65, 0x71, 0x75, 0x65, 0x6e, 0x74, 0x69, 
  0x61, 0x6c, 0x5f, 0x31, 0x2f, 0x64, 0x65, 0x6e, 0x73, 0x65, 0x5f, 0x33, 
  0x2f, 0x4d, 0x61, 0x74, 0x4d, 0x75, 0x6c, 0x3b, 0x73, 0x65, 0x71, 0x75, 
  0x65, 0x6e, 0x74, 0x69, 0x61, 0x6c, 0x5f, 0x31, 0x2f, 0x64, 0x65, 0x6e, 
  0x73, 0x65, 0x5f, 0x33, 0x2f, 0x42, 0x69, 0x61, 0x73, 0x41, 0x64, 0x64, 
  0x00, 0x00, 0x00, 0x00, 0x02, 0x00, 0x00, 0x00, 0xff, 0xff, 0xff, 0xff, 
  0x05, 0x00, 0x00, 0x00, 0x44, 0xfb, 0xff, 0xff, 0x12, 0xfc, 0xff, 0xff, 
  0x04, 0x00, 0x00, 0x00, 0x80, 0x00, 0x00, 0x00, 0x06, 0x16, 0x57, 0x3f, 
  0xd4, 0x59, 0x6b, 0x3f, 0x15, 0xeb, 0x68, 0x3f, 0x8b, 0xc1, 0x8a, 0x3f, 
  0x08, 0x48, 0x4d, 0x3f, 0x4e, 0xa5, 0xb7, 0xbf, 0xb0, 0x1e, 0x6e, 0x3f, 
  0x79, 0x3f, 0xa8, 0xbf, 0x5c, 0x8d, 0x9b, 0xbf, 0x6e, 0xd0, 0x78, 0x3f, 
  0x7a, 0x4f, 0x58, 0x3f, 0x85, 0xcf, 0xc3, 0xbf, 0x7e, 0x51, 0xca, 0xbf, 
  0x1f, 0xee, 0x68, 0x3f, 0x8d, 0x3a, 0x5a, 0x3f, 0x05, 0xae, 0xc0, 0xbf, 
  0x9e, 0x5b, 0x54, 0xbf, 0xf0, 0x46, 0x73, 0xbf, 0x18, 0x7e, 0x62, 0xbf, 
  0x13, 0x91, 0x8a, 0xbf, 0x48, 0x67, 0x54, 0xbf, 0xf7, 0xd3, 0xb4, 0x3f, 
  0xd3, 0x2e, 0x63, 0xbf, 0x43, 0x46, 0xa6, 0x3f, 0x36, 0x01, 0x99, 0x3f, 
  0x89, 0x6b, 0x84, 0xbf, 0xd5, 0x92, 0x59, 0xbf, 0x4f, 0x9e, 0xc2, 0x3f, 
  0xff, 0x1f, 0xcb, 0x3f, 0x03, 0x69, 0x6b, 0xbf, 0x92, 0x74, 0x54, 0xbf, 
  0x7c, 0xc4, 0xc2, 0x3f, 0x82, 0xfc, 0xff, 0xff, 0x10, 0x00, 0x00, 0x00, 
  0x07, 0x00, 0x00, 0x00, 0x14, 0x00, 0x00, 0x00, 0x30, 0x00, 0x00, 0x00, 
  0x02, 0x00, 0x00, 0x00, 0x02, 0x00, 0x00, 0x00, 0x10, 0x00, 0x00, 0x00, 
  0x1b, 0x00, 0x00, 0x00, 0x73, 0x65, 0x71, 0x75, 0x65, 0x6e, 0x74, 0x69, 
  0x61, 0x6c, 0x5f, 0x31, 0x2f, 0x64, 0x65, 0x6e, 0x73, 0x65, 0x5f, 0x35, 
  0x2f, 0x4d, 0x61, 0x74, 0x4d, 0x75, 0x6c, 0x00, 0x14, 0xfc, 0xff, 0xff, 
  0xe2, 0xfc, 0xff, 0xff, 0x04, 0x00, 0x00, 0x00, 0x40, 0x01, 0x00, 0x00, 
  0x0c, 0x42, 0x2c, 0x3f, 0xd8, 0x9a, 0x8c, 0xbf, 0x62, 0x76, 0x32, 0x40, 
  0x93, 0x9d, 0xd0, 0x3f, 0xe0, 0x7a, 0x8f, 0xbf, 0x12, 0xf1, 0x37, 0xbd, 
  0x09, 0xae, 0x64, 0xbf, 0xaf, 0x57, 0x4d, 0x40, 0xe3, 0xd7, 0xa4, 0x3f, 
  0x37, 0x28, 0xa3, 0xbf, 0xe3, 0x6f, 0x53, 0x3d, 0xe6, 0xde, 0x92, 0xbf, 
  0xfd, 0x85, 0x57, 0x40, 0x8d, 0x23, 0xfe, 0x3f, 0xf1, 0x66, 0xa9, 0xbf, 
  0x38, 0x4a, 0xc8, 0x3c, 0x55, 0x66, 0xae, 0xbf, 0x4b, 0x76, 0x3e, 0x40, 
  0xc4, 0x8d, 0x9f, 0x3f, 0x91, 0x19, 0xa2, 0xbf, 0x78, 0x32, 0xac, 0xbd, 
  0x85, 0x9f, 0x13, 0xbf, 0xd9, 0x11, 0x29, 0x40, 0x6e, 0xe2, 0xa6, 0x3f, 
  0x7f, 0x22, 0xa3, 0xbf, 0x09, 0x20, 0x14, 0xbf, 0x99, 0xbe, 0xa6, 0xbe, 
  0xdb, 0xc7, 0x99, 0xc0, 0x02, 0x3d, 0xef, 0xbf, 0xf9, 0xfb, 0x98, 0x3e, 
  0xbc, 0x60, 0x39, 0x3d, 0x10, 0x0e, 0x68, 0xbf, 0x54, 0x09, 0x3f, 0x40, 
  0x9e, 0xf6, 0xa8, 0x3f, 0x68, 0x17, 0x8b, 0xbf, 0x26, 0x6f, 0x4c, 0xbf, 
  0x9f, 0xbf, 0xf9, 0xbe, 0xdc, 0x1a, 0x84, 0xc0, 0xda, 0x17, 0x7b, 0xbf, 
  0x44, 0xae, 0x9f, 0x3e, 0xec, 0x51, 0x0b, 0xbf, 0x16, 0x3d, 0xbe, 0xbe, 
  0x94, 0x95, 0x82, 0xc0, 0x6e, 0x9a, 0xf6, 0xbf, 0xc4, 0x4a, 0x1b, 0x3f, 
  0xcf, 0xd9, 0xb0, 0x3e, 0x36, 0x9d, 0xa0, 0xbf, 0x15, 0x12, 0x49, 0x40, 
  0xbb, 0x4a, 0xde, 0x3f, 0x57, 0x04, 0x9e, 0xbf, 0xbd, 0xf7, 0x94, 0x3e, 
  0x1a, 0xc8, 0x62, 0xbf, 0x9d, 0x41, 0x38, 0x40, 0xa8, 0x8a, 0xbe, 0x3f, 
  0xb0, 0xad, 0x6f, 0xbf, 0xe8, 0x08, 0xd0, 0xbe, 0xd4, 0x78, 0xfe, 0xbe, 
  0xbb, 0x03, 0x9c, 0xc0, 0x51, 0xf1, 0x67, 0xbf, 0x49, 0xdf, 0x0b, 0x3f, 
  0xcb, 0x67, 0x12, 0xbf, 0x0c, 0x3d, 0x28, 0xbe, 0x32, 0x3e, 0xa7, 0xc0, 
  0x5e, 0x90, 0x7c, 0xbf, 0xb8, 0xad, 0xbb, 0x3e, 0x0f, 0xf0, 0xba, 0x3e, 
  0xab, 0x1d, 0xb3, 0xbf, 0x30, 0x10, 0x37, 0x40, 0x8e, 0xb7, 0xd8, 0x3f, 
  0x31, 0x33, 0x65, 0xbf, 0xb6, 0x0d, 0xaa, 0xbd, 0xde, 0xda, 0x54, 0xbf, 
  0xe1, 0x82, 0x47, 0x40, 0xde, 0xf1, 0xb2, 0x3f, 0x33, 0x56, 0xa5, 0xbf, 
  0xbb, 0xa9, 0x7e, 0xbf, 0x1b, 0x6c, 0xf4, 0xbe, 0x32, 0x3f, 0x8c, 0xc0, 
  0xe4, 0xa7, 0x21, 0xc0, 0x12, 0xbc, 0xd5, 0x3e, 0x12, 0xfe, 0xff, 0xff, 
  0x10, 0x00, 0x00, 0x00, 0x06, 0x00, 0x00, 0x00, 0x14, 0x00, 0x00, 0x00, 
  0x30, 0x00, 0x00, 0x00, 0x02, 0x00, 0x00, 0x00, 0x10, 0x00, 0x00, 0x00, 
  0x05, 0x00, 0x00, 0x00, 0x1b, 0x00, 0x00, 0x00, 0x73, 0x65, 0x71, 0x75, 
  0x65, 0x6e, 0x74, 0x69, 0x61, 0x6c, 0x5f, 0x31, 0x2f, 0x64, 0x65, 0x6e, 
  0x73, 0x65, 0x5f, 0x34, 0x2f, 0x4d, 0x61, 0x74, 0x4d, 0x75, 0x6c, 0x00, 
  0xa4, 0xfd, 0xff, 0xff, 0x72, 0xfe, 0xff, 0xff, 0x04, 0x00, 0x00, 0x00, 
  0x64, 0x00, 0x00, 0x00, 0xc2, 0x54, 0x2c, 0x3e, 0x0f, 0xb8, 0x21, 0x3f, 
  0xb3, 0x7f, 0x09, 0xbd, 0xb0, 0x8d, 0x77, 0xbe, 0x30, 0x9d, 0x12, 0xbf, 
  0xe7, 0x6d, 0xa6, 0x3e, 0xbe, 0x93, 0x2d, 0x3f, 0xde, 0x11, 0xbb, 0xbc, 
  0x3c, 0xbc, 0xd6, 0x3e, 0x58, 0x7f, 0x08, 0x3f, 0x10, 0xf0, 0x85, 0x3d, 
  0x42, 0xa4, 0x8e, 0xbd, 0x0a, 0x04, 0x25, 0x3e, 0xd5, 0xa7, 0x90, 0xbe, 
  0x09, 0x4c, 0xd6, 0x3d, 0xae, 0x16, 0xd9, 0xbe, 0x29, 0xf0, 0xbe, 0x3e, 
  0x8a, 0xff, 0xb4, 0x3e, 0x40, 0x2f, 0xf8, 0xbe, 0x57, 0xe8, 0x08, 0x3e, 
  0x17, 0xe6, 0xa5, 0xbe, 0x15, 0x8f, 0x09, 0xbf, 0x99, 0x4f, 0x3c, 0x3d, 
  0xbf, 0x42, 0x0d, 0x3f, 0xcc, 0x96, 0xbd, 0x3e, 0xc6, 0xfe, 0xff, 0xff, 
  0x10, 0x00, 0x00, 0x00, 0x05, 0x00, 0x00, 0x00, 0x14, 0x00, 0x00, 0x00, 
  0x30, 0x00, 0x00, 0x00, 0x02, 0x00, 0x00, 0x00, 0x05, 0x00, 0x00, 0x00, 
  0x05, 0x00, 0x00, 0x00, 0x1b, 0x00, 0x00, 0x00, 0x73, 0x65, 0x71, 0x75, 
  0x65, 0x6e, 0x74, 0x69, 0x61, 0x6c, 0x5f, 0x31, 0x2f, 0x64, 0x65, 0x6e, 
  0x73, 0x65, 0x5f, 0x33, 0x2f, 0x4d, 0x61, 0x74, 0x4d, 0x75, 0x6c, 0x00, 
  0x58, 0xfe, 0xff, 0xff, 0x26, 0xff, 0xff, 0xff, 0x04, 0x00, 0x00, 0x00, 
  0x14, 0x00, 0x00, 0x00, 0xa2, 0xd1, 0x64, 0x3e, 0xd0, 0xbe, 0x1e, 0xb9, 
  0xfd, 0x9d, 0xb3, 0x40, 0xff, 0x78, 0xa0, 0x40, 0xb6, 0x18, 0xea, 0xbf, 
  0x2a, 0xff, 0xff, 0xff, 0x10, 0x00, 0x00, 0x00, 0x04, 0x00, 0x00, 0x00, 
  0x10, 0x00, 0x00, 0x00, 0x20, 0x00, 0x00, 0x00, 0x01, 0x00, 0x00, 0x00, 
  0x05, 0x00, 0x00, 0x00, 0x0c, 0x00, 0x00, 0x00, 0x64, 0x65, 0x6e, 0x73, 
  0x65, 0x5f, 0x33, 0x2f, 0x62, 0x69, 0x61, 0x73, 0x00, 0x00, 0x00, 0x00, 
  0xac, 0xfe, 0xff, 0xff, 0x7a, 0xff, 0xff, 0xff, 0x04, 0x00, 0x00, 0x00, 
  0x40, 0x00, 0x00, 0x00, 0x4e, 0x48, 0x71, 0xbf, 0x2c, 0x47, 0xaa, 0xbf, 
  0x0d, 0x96, 0xb4, 0xbf, 0xaa, 0xdd, 0x62, 0xbf, 0x61, 0x8b, 0x82, 0xbf, 
  0x2d, 0xa2, 0x1a, 0xbe, 0x28, 0x40, 0x99, 0xbf, 0x16, 0x7b, 0xcc, 0xbd, 
  0x7c, 0xb3, 0xec, 0xbe, 0x20, 0x55, 0x8c, 0xbf, 0xca, 0x75, 0xaf, 0xbf, 
  0xc4, 0xc6, 0xaf, 0xbe, 0x27, 0x34, 0x05, 0xbf, 0xab, 0xf9, 0x77, 0xbf, 
  0x28, 0xf3, 0x95, 0xbf, 0xeb, 0xef, 0x16, 0xbd, 0xaa, 0xff, 0xff, 0xff, 
  0x10, 0x00, 0x00, 0x00, 0x03, 0x00, 0x00, 0x00, 0x10, 0x00, 0x00, 0x00, 
  0x24, 0x00, 0x00, 0x00, 0x01, 0x00, 0x00, 0x00, 0x10, 0x00, 0x00, 0x00, 
  0x0c, 0x00, 0x00, 0x00, 0x64, 0x65, 0x6e, 0x73, 0x65, 0x5f, 0x34, 0x2f, 
  0x62, 0x69, 0x61, 0x73, 0x00, 0x00, 0x00, 0x00, 0x04, 0x00, 0x06, 0x00, 
  0x04, 0x00, 0x00, 0x00, 0x00, 0x00, 0x06, 0x00, 0x08, 0x00, 0x04, 0x00, 
  0x06, 0x00, 0x00, 0x00, 0x04, 0x00, 0x00, 0x00, 0x08, 0x00, 0x00, 0x00, 
  0xb2, 0x36, 0xd7, 0xbe, 0xae, 0xfc, 0xdd, 0x3e, 0x00, 0x00, 0x0e, 0x00, 
  0x14, 0x00, 0x04, 0x00, 0x00, 0x00, 0x08, 0x00, 0x0c, 0x00, 0x10, 0x00, 
  0x0e, 0x00, 0x00, 0x00, 0x10, 0x00, 0x00, 0x00, 0x02, 0x00, 0x00, 0x00, 
  0x10, 0x00, 0x00, 0x00, 0x20, 0x00, 0x00, 0x00, 0x01, 0x00, 0x00, 0x00, 
  0x02, 0x00, 0x00, 0x00, 0x0c, 0x00, 0x00, 0x00, 0x64, 0x65, 0x6e, 0x73, 
  0x65, 0x5f, 0x35, 0x2f, 0x62, 0x69, 0x61, 0x73, 0x00, 0x00, 0x00, 0x00, 
  0x90, 0xff, 0xff, 0xff, 0x14, 0x00, 0x18, 0x00, 0x04, 0x00, 0x00, 0x00, 
  0x08, 0x00, 0x0c, 0x00, 0x10, 0x00, 0x00, 0x00, 0x00, 0x00, 0x14, 0x00, 
  0x14, 0x00, 0x00, 0x00, 0x14, 0x00, 0x00, 0x00, 0x01, 0x00, 0x00, 0x00, 
  0x18, 0x00, 0x00, 0x00, 0x44, 0x00, 0x00, 0x00, 0x34, 0x00, 0x00, 0x00, 
  0x02, 0x00, 0x00, 0x00, 0x01, 0x00, 0x00, 0x00, 0x05, 0x00, 0x00, 0x00, 
  0x1f, 0x00, 0x00, 0x00, 0x73, 0x65, 0x72, 0x76, 0x69, 0x6e, 0x67, 0x5f, 
  0x64, 0x65, 0x66, 0x61, 0x75, 0x6c, 0x74, 0x5f, 0x64, 0x65, 0x6e, 0x73, 
  0x65, 0x5f, 0x33, 0x5f, 0x69, 0x6e, 0x70, 0x75, 0x74, 0x3a, 0x30, 0x00, 
  0x02, 0x00, 0x00, 0x00, 0xff, 0xff, 0xff, 0xff, 0x05, 0x00, 0x00, 0x00, 
  0xfc, 0xff, 0xff, 0xff, 0x04, 0x00, 0x04, 0x00, 0x04, 0x00, 0x00, 0x00
};
const int acel_model_len = 2664;
